05
15
3E
01
03
13
04
12
38
11
02
0B
00
3E
03
0A
00
0F
04
14
00
05
39
11
3F
04
09
13
38
05
3E
0B
02
03
3C
0C
3A
3B
11
3C
3E
3A
12
39
3C
03
0A
00
3A
35
00
3B
3C
31
3E
35
3E
34
3F
3E
36
00
3A
2C
02
2C
37
33
0F
3B
01
3B
3E
3D
0B
06
08
0F
0F
09
0E
06
0C
3D
31
07
3C
34
03
00
0E
3C
3E
0A
0B
32
37
35
3D
0D
34
3A
3A
0A
34
3A
3C
38
3B
36
2C
00
07
38
3C
2F
05
36
34
3E
03
02
08
00
04
01
07
3A
0A
35
3F
2E
03
0F
07
06
3D
07
03
34
05
07
3B
2B

