00
35
02
3A
39
0A
37
08
05
03
3B
08
06
3F
3A
02
05
0C
30
07
06
3B
01
0D
06
0D
0E
3C
03
07
0C
08
06
0B
3D
3E
3D
00
02
36
02
07
3A
04
3A
00
3C
02
34
3D
3D
2D
3D
3B
37
0E
10
36
3D
0C
02
0B
08
3F
06
3F
0A
01
06
3A
3C
08
31
2E
33
05
34
3A
09
38
3E
2F
3B
3A
36
3F
36
33
01
05
32
01
08
38
38
02
01
3B
08
0C
03
07
06
09
3F
08
0A
3C

