0FE3BAE43F810C8E42FF8F00
B47140CFF33E53AE80240D03
E460F703D13F20608BFF5D40
13EF00FBEFFE003143000041
07813DEC9E7FFC4F0313E143
07E100FFA2FB180E82F0AD81
0810FA2000BFDFCF47F01EC0
17FF80FC0F80F40140F81FC0
13C1BCF42E01046F02FBF17F
DC1DC60FE0FF13F0F8002003
FC007BFC1F80FC20870BDF7F
0040C103FFBEEC0040000EFE
0831BBF01DC7040E0103C0FF
E01CCAE3E080349277F36E81
001E74DCA1051F7101FFE002
142082FC0FFEFBE082F40FBF
FC517EFC0D86EF1E001821BD
E4BFC5EBD0FA3C80BADF0EC8
D40D3C00023F23FE8610327E
0BFFC1F8603B03DFC307E000
146FFDEF9D85EBA0420C61FD
FFDE080F5FFB088238F47FC6
038F811770BFF02208FCCE76
FBD00104403C002FC203D000
0890BAE79E04F3CFC014313E
200F4A07C03EF49074EFB005
079EBFF45040F03F0213F200
03C00000403EFC1083082FBF
184238EFE105D75E41143F3F
E7A00B14FFBD13E031F340C9
FF1082FC6080FC0FC4008EB9
FBD002FC3FFD142003F3D000
FC61FBD76D06CB50C1383FBD
CFB08A0FF03B14A0B5139EC8
03F300074EC3F08F840C2F38
03BFC000607C081083FC10BE
00003EF78E44DC0EC01471BB
07DFC9034F7A0081BBFC7F83
07EFFB0B5140EFFF0608907D
0800010050BD03CFC5040040
186EBBEC9D47EF50FF03D340
E88DC103303918B03D03724A
186F78181083FFDEC3DBB100
04318303E03DFFEF82FFFEFF
2FE13EF4BD84CFBFC004013C
E05C830FDEFE186337FB90C8
139E7D1C4182F42081D82080
083FC2FBD03F0C0041FC0FFF
1F60FCF8AE03D42F8210013F
03DEC40C1F800412B5EC0F47
EF6EFE308239EBFFCA004040
0BEFFEEC103E0C008008203F
0031BC003EBFFC7F44072040
F0003FFB4EBF0C020110AF81
08207E200FBCEC01C9F3FF3E
F3F0C2FBF03F080FC208003D
07E1FC081F01DCAE83176FFE
146EB70FDE00FBA143E03244
F44FC02801C4E800FEFFAF00
EFF07F0FD03E083F8003F002
1000BCE46D80EC4E000B8184
048140FB7E041C0340E00D7E
0C403920110BFBE000EBFFBE
FBEFFFEFF08018007E080003
1BA0BCEC6D43EFF03EFC4143
08E0050BFF0F0F91B5DF8FB5
08E0002450CBE33E80FB6FB4
FFD140F3D07F142000F82F43
2BE03EF02DBEE00F820001BF
C51BB30C5E0F13A37B1AF27F
147E39181F45F36183DFE0FC
04108403EFFCFC0040040F02
100F7FFBEF44CF9F0214727E
EC0DB2039186243F43E81183
0FFE3A1C4FC3006005DB723D
102EC3FC107C03E000F3C082
FC30BEDB5E03D3B0C02C603C
07700310000A0040BAE82F76
F7A305003F4BE4603E1FEDB4
03CF82FC4FFD07D0BFF420C3
0FF0FDE35001DC4F82183FC1
C4114523DD4A10A131037000
FC52FD07A082E4AFC11B5CFD
03F087082F3E0BE000FC103A
FC00F9FB3101F02FC2144E42
F501C0FC8F8007A0760EEE89
080FFBDC0039088F870340C3
FC0006083FFD13F041FBD03A
F82080F33F01DF900028903D
D83184079E8B0090311BB03F
E39FC8F010CB14BFBE23BFF2
03F00204307A04100203F040
FBDFFE0BEEC0F40F8308117D
13B2C3141B50E7F137FC50B5
FFF0C0FC0FC7041002FBFF78
F00045FC20BC0BC0BF0FF03F
1BEF3F00ADC0F78180F410C2
17F0B11BD007E40CC2F43282
086FBBFFF0C1178F86EFF07E
FC208403F07C0C1F8003F000
13B13DCC7EC30BA0BD084F44
D49F78240E0903B00507D2F6
F88F01044F8517DFC3F360FB
F40F42FFB13D081001043040
F7D17CF89F4003F0011FFFC1
008E830BD0510BAF78F001F2
F85F7B28A291FB9DB6E790FC
03F042F7E07E000FFE080FC3
042DBDFC0FC40C703E034200
E4B0BB0B32451B8E3FF87FC0
D87EFB13A1C70BE0410C0F40
FFD040040080002EBFFC0040
080E80F7BF800C90830FC1FE
AC12780BD1BC17EF4D345D3F
DFAF00100000F8127A146E83
0FF07E00107EFC1F01F800C1
FC00000C5FBDFC003A07D085
FC20F807228010CF03F3EDC5
E41F4317C17FF42F79042083
F81FBFF8007E0FF0020BF041
F43040FC6F37F3B14413CF41
000EBA0BA1BE101D4BE442FD
0BD08207CFB81C0F88D0603E
03FFFC03E0C103D000044044
1FDFC1F3EF7DFC3140FBFFC1
DC30B71BFE80079E8E045279
037043FFDF47102179EC803B
F7E13FF820400BD03EFFFF04
1BF07FDC0EC2F47FB413E103
F3906E2BCEC7E83F0AFC81F9
EB8F3E0F90000880BC005105
E820BCFC004117FFFF0BFF44
E461C3E7DF79F06FFE338F03
17B3390F6C41F08085F0603F
07CF01F82F3E03D07B004145
007FBF00304017DFFCF7A002
FFF106EFD17C0050421FDE3B
E8703C07CEFEFC0F8917D27C
FBF0C6EFD04407FDC01450B5
F44F8408204307C03BFFEFC1
17BF88FB9080046042FC4038
F06232EF8F040FEF4814403D
1BE104F3CFC504007CF03EBC
082FC5F82FC417F0FAEBB07D
03FF07001302FC2FBE0BCFBD
FC0FBBE81EB8FFBF50184336
001ECBFFF2BDFC1DFE0C017B
FC4FC1FC2FC503FFFBFBD002
EBFEC11421FBFC70000FA086
0BD176D76140045D85107004
F3DEC1FFD3C4FC9E390FFFC0
F85FB9002F80FFC03D0BC0C5
FC2F81F43F831430FD039FFE
177EB4FB524BFC5F0200C03C
077F0307833F00A000EC5E7C
F400400FFFC203F03C043083
000181FC5082100EF6EBEF40
241D3BF36244FFD187F4CDB5
137242040F77F400C7F07DBF
F3E07D0FF083FC0FFF0C4FC1
F440FE08303B13EEC1EFCF85
043EBF23827FD06F480FEFFB
07D38107E07DF85040F41C82
FBDF40043001FFF07F0801C3
EBF13D0BDBBD0443020BFF83
108DF31ED284D0AEC807F0BE
07913F075144006F37F89E07
000FFC080000FFF000FC2082
F8514407B03A040F3A07F042
1BFD7F1BE2BED02045000E7E
FFB0C0040045FC30BD004F7D
0BF001080080002F00FFE03F
EC3100176FF403AE3C008108
140FBF1B837DDC4F3F002E04
0442B90FF003EF9FBA044CCA
F80F8003F0FEF80000001000
FFD185081E330FD100F45F05
180FC0041380E7ECC8001076
20113D000147FFFF7EF41E3F
F800010FDFC0F3E0400C5FBE
0FF0C3F7A177083E7C004F84
240FC5F00F8800B27BEF3E78
10013C038044FC70BFF80E01
F0304210203F000F7E03E0C0
E85F43FFB2B803EEBA0C2046
03712FE36102110FC90B8E7F
03ED790BD343043FC3044002
EC2082000F7C07CF830FF0FC
EC2F471043380B7F780C2F84
174FC0DC01C8006FFE081F7A
047039FBF384FC0FBD036DC5
003FFF07EF7D03F004FC007F
04400DFBF0BE0000F703CE7B
FB4FC4FC6EC803DE001083F2
083EFEF80041F83F860371FC
F84FB907FFFD040003FBDFC2

