FBA0C1202E00
1C0FFEE80003
1B7F7F18BD40
F80FBE0C3001
E3D27F103F83
F80EBB002281
07A03FF07040
FC0000000040
F3C081182FFF
046FBFFF8083
03B040087F7F
101FFE00003E
0FB047001F3F
04AF80277D81
074285DC1F82
08203EF8203F
17E006C400BD
2C5F7A23AC08
03C03FFC60FE
FC11BBF43F80
1BDE45E821BD
F48D7B2381C6
E01DFF088336
F4113C082F40
27AE44F000FE
00AF3E274EC5
E7F1400C2FC0
F0013E0430BF
138F85D410FF
E8B3FDFB1D09
C42180004239
F420FD083F40
1BBD86D410FD
ECAFFB2B5E48
FC0D032040B8
EC01BC04307E
03EE040001FB
F49D3A23B1C3
FBBD40FC627D
00117DF05000
1BB247D7FF40
201CF92FDDCA
1B8043F43EC0
0C3FBDF82FFF
FBE2C4EC003C
143F7E1B7E48
E7D102081080
0C2F7F00103F
DBC28308203F
F44040075007
DBE239FCA100
FBE07E0000BF
0FC0FF1C4C80
03FD3F001281
0BE03C009FFE
FC2FFF00203D
FBC041283DBE
1B7F40E830C4
10000403EE80
FFFF7E0C0FC2
03C180100E04
200DC400003E
13904BF80FFE
FBFFC003E003
EBC183FFE103
385FCFE75E35
38014BCC0DB4
F40F7F080083
FBE0BE00203F
47314FEBBBFF
1F9045D83FBC
044FBC000002
03FF84E421FE
032E460C3043
FFA103185DFD
08307CF80F02
0FED43EC01BC
DC300A13A0B6
E850CB1BEFB4
F0213DF7F083
FFDD411020C1
045F4A2B1DC0
17DE82281D7D
FC70BEF8007A
039CC1082102
400200EB6B89
03B039207D03
0060FDFC1F7A
080CC1E4027D
0C4E4B271EFF
E4804B2FEEF2
FC20FA042FC0
F7EF8000307D
EC3050FF7175
FC0007042FF8
0050BCF3FFFF
FBF280E00042
FF1F470020C2
1BBFC1E06FFE
084FFC040FC0
EFD1C3EBD104
278009EC5F76
201105F43DBB
002EFD0410C0
F7C240FC1FC1
203F51EB8032
17B291E76E7C
FC2FBE03E003
0BD0041FED00
2FBCC5E3F1C0
1FBE87F81000
F400000BF000
000EC0243F3E
078F7CF8D17F
E8000007A183
FFE07E041001
00017D03AF45
0B8C80303F85
043F3F0B9083
07F03EFC2FC1
0C01B7EC4F01
03AEBE04B13D
F42F380081BE
FFCF81F40104
F41FBD0C0FC1
0F7FC0E4E179
DC3F470B923B
FBF080F7EFC4
FFF0021F4F83
E6EF070CA239
E3EE4023C145
0BC001FFFFC4
183F791BEE03
EF9D812051BF
F010BEF7B105
1FF0C0F7CE82
FC6F7C142F7B
1FCF3E009F7C
FC6F44FC0175
104083F3BF81
EC8E40182138
1B2E04F8813D
F84F0503C0FC
085084FFAEFD
FC70420BEF3D
03B078ED0136
04BFFD07E03B
101085FFBF42
FC10BB1C0E86
F76D801451C4
F41F44279FC0
179080F3DF05
0810C30FDE7E
DF4D4B14233C
DC3E3F28017C
000FC2FFC0C3
001142036F80
07BD84F47335
DC20370071FF
FBDFC303F101
13E0FBF81F05
0FFE3F188FBB
F41FBD140042
F400C1FFF003
FFDF7D102FC3
233B44288FFE
E7FD441B7247
03C000FC0082
144EFA03AFC2
FFFFBE08503E
EC00050FD13D
FC1000080FBF
0C0DB4EBC208
03FE3D13F084
139FC3E7A10A
000FFE000040
F45073F40145
000040F88076
07D007FFE07F
001F40F8017E
FC3EB70FC104
0050082FBCF8
03CE041FF001
0C20BF03EF80
143EF8FBA086
DEFD82409E3F
FB9F430C3102
08203CF03FFC
087138DF8084
D000081BE07A
1F9FC403DD85
0FFFBDFC403F
10DFFE037F3B
D04188F40232
0FE0010C6DFC
139FFD003F42
0CEE7E0F9FFC
B45CCC53A274
E43004202FF5
13CFBF005001
044EF9FFC105
044FCB1BAF36
083202DFDF3B
17EFFEF45FBF
106F7807CF85
DF70C3103000
FC1FFEFC20BD
00303EEC103B
086F37078003
E33E02349F3A
039DC41C4FC0
142FFFF82F7E
FC5FF6EF8186
E7FE833C2DFB
D7400823A109
0BFF8003F040
17FEF6E810C7
FF80FF088F7F
03E142F08FF9
F8004003F000
082E78F3F144
23D040F41EC0
07AF41F3C108
000000FC20BE
188EC4D7917C
E4017E100F03
FC2FC2FFF03A
F80FFF140F00
FC7D74C833BE
CC20C014213B
00C07BF3E0FC
03F001082FC2
000F79DFB146
07F03D006FFE
07F085EFC081
08000203F041
1BAEF5EC300D
EB7000180009
1BD182FFBD84
046000FFEFFB
2C4F76CFF044
E320FB18CF83
1391C6F42D82
0BFF800C1FFF
1C3FB8D7E104
03B0FE04AEFD
EFB308EBF001
0BFEC00C2080
00603AFFD041
F00FBA0C813E
08123EEC7F3C
F03F800BF080
0470BCDFA17F
17A0F8F85E09
F7F287E83FFC
EC10C00BE000
102E76EF8086
045FB81CDE35
0C0204F80EBE
FBFEC2181080
182EF5EC0FC5
0800BC0C6DFE
080243E3AFBE
FC5F01140FBD
280F36E3E006
C6E0F810D189
1781BDF06DC3
04203FFC107C
13DFBDCFC149
EF600627DE86
0F81FF000D88
13BFC1000F02
FC2DB8D032C0
040100002EBD
F4C03DE401F6
03EFFF042F43
0C3E00DFE1BF
C45235104000
FCB042E7F1B3
0020BC080FC0
FC3F84F3F179
F47FFE0410FA
0BFDC00BE003
FC00BF101F80
F82F3CDC0280
D8607A000180
E3FF0317E23F
000041040001
FBF0BBF7E085
10B16DE44FC2
FC3FFF040FBD
F01FC20820C0
1BC037F46F43
142180E73F4A
0BEFC317EEC1
FC20010FE000
104CFB0820BD
D7D27800004B
FBC07E17FF03
F7DFC4080041
F45FBD0001FF
03A0810BDF07
FBD28AFB6E43
001F4103F0BF
076FFF0C0008
E420891B8FBF
DBB1070810FD
FC104203AFC1
0BAF7E0C20C7
AC908617D374
DFC100F8917A
0C1001FFCF83
FC00FEFC0042
FC304A13CF37
E7D145F7D042
FBEF810C0081
F41FFCF0513D
03A086135E4B
08207E1FED00
03F003000041
1FFF3DFC5FBF
DC21BA07A049
001FFD105EC0
F44F81080FFC
181DFBF7E104
F012BBEBCFC7
EBC0C0082004
E82FC117F0BD
E47E7DF3F33C
14C0F1F02F00
07CFBC001005
03E00117FF40
FC4EC50011F8
E8007BFFE149
F83EC1077142
F7E081040FFF
17EF82041FC0
F08EFC0FD140
184F3F041F3A
0BFFBF143E81
03C00CFFE0BE
FFEEBAFFD18C
03BFCAFF70C5
FFFFFF03FF80
EBB147FC00C2
085D45076100
F3BFCFFF80FF
FBE03EFC0083
FFEF7E14303F
17AF89FFC000
07C04C000EF9
F410FF000042
006FC213BEBD
274F09FC6F76
10907DF43F36
F010C2FFF0FF
F4308013BEFE
07A209D3D0FF
04E041F81F72
FBD040FC1087
E840AE04C0BE
1371CAD3B042
04404503CFB8
03F080FC0FC2
F8504007C041
1B518AD01039
FC3041FC203D
08008203CFC0
EC417F038004
17E18DDFC038
04A0C0EFE073
FBE003F80000
FC60B80C4F7C
1BF04EE73001
204005FFDF78
F800FFF010FE
0C3F450B903E
27FF3E009EF9
104001FC2FB8
F0110003D003
EBDFCA03A0C1
004E0413F0B9
03508D07F040
EC203D07E0C3
EFD10C0BD0FE
17FDC703F0BD
040F8EFFE037
03F07D000FC1
040F82003039
FBFFFB03810F
0BBF81FBE007
FBE07F040FBF

