05
04
05
05
10
0C
0C
01
3E
04
00
0F
0E
03
08
3A
06
3C
05
3B
3F
00
04
3C
02
33
3E
39
08
34
09
01
08
35
37
3A
36
3E
05
09
05
07
09
3C
3A
05
08
3B
3F
0A
0E
07
36
07
0C
3B
3F
0B
08
38
37
39
02
08
09
03
02
36
0B
3C
0C
34
01
09
06
3A
04
0E
0B
33
0B
3C
0B
3B
03
3A
08
36
05
00
01
3A
11
34
36
08
3F
3F
3E
04
3E
39
37
07
3D
3D
00
0D
0D
0A
06
04
0B
3B
08
39
05
04
05
37
03
06
0B
3E
06
39
0A
3D
08
3B
3E
37
07
01
3F
0C
0F
3E
04
02
09
35
01
3E

