000B7140000FC0000100
1FF7E080000000000100
1B178100001FBE08017E
00039100002FBF000140
1E03D0C0040000000082
1CEC9000000000000040
1D000000000FBF0001BF
1DF030C0000F800010FF
04039080000001000040
00044000FFF00004003B
1F001000000F400000FE
01F8203F03FFC00000FB
0203D04000000000003F
000C103F00000000003E
1E0000000000000400BC
02FC00000000000000BD
1EF04040000FC0000000
1E04603FF8000000003C
0004003F0000000800BD
1CF840C000003E04003D
19EC9040000000000000
1C004000FC003F00003A
0003D0BF00000008003C
1B00207F00008008003C
1CE4900000000000103F
1F007000F000000000BA
0003C000FC00000800FB
1F0BE08000004004003B
1CE8704000000000103F
02FC503FF4003D0000BC
0003E0BF000000080039
0003E04000008004007D
1BEC804000000000003F
1EF8303FFFFFC000003D
0003F03E00000008003E
000BE08000000000007D
1DF05080000000000000
1FF83000FFF000000000
0000007EFC000008003D
1F07B0800000000000BF
00F80080000000000000
1FF03000000000080000
1FFC207FFFF03E04007C
0003E040000FBF0000C0
0203A040040000000000
1EFC4000FBF00203F004
00041000000FFF0010BB
00FFE07E000F800000C0
03F3C000000001000041
1FE8300003FFC007F0C2
1D08000000003E0400FD
00FFE000000001000080
1F07A100001FC00000C0
1D0BB13FFFF0000800FF
000770C0000000000140
000BA0C0000FFE0C013F
010F614000003F040101
03F7D07E000000040001
00FBC040040FFD0010BE
02FF60C00010000000C0
00EC1041000000000082
1F000000FFF040000000
02E0003F000002F80000
1FEC0080080000000040
0103E000FC000003E003
02040FC0FC008003D03E
01FFF0000C0000000000
0203E00004100000007E
02F0000000000004003E
0100003F0000020BE07E
01FC100000100000003C
00F7FFC000000004007E
00F41001FFF00200003C
00003FFFFBD04004003B
00FC203F0400000000FD
00042FC0000000000079
1F041FC0FFF0000000F7
00080FFFFFD0400010FA
1E00403FFC103E0000FB
01FC3FC000003D0020F9
1C083FFFFC003EF83177
010FFF7FF4003E0010BD
00045FFFFC1FBB00013A
01002F40000FBB0001B8
1D042FFFF4003BF41139
040FEFBDF3E07E0420FB
1F004FFFFC003A0001BB
03FC5FC0FC003C001137
1E042000FBF000002136
01FFF000FFD08008003B
1B046FFF00103E0000FB
02003000000040000078
1FF0100000000200003C
01F7F000FBF00308003F
1DFC400000004000003A
01F8000000000000007C
01F41040FC000004003E
0003F000F400000BD000
00F4100004004000003C
05FBE00000200000003E
03FFE000000001000000
1F0FD03FFC008103F005
1F03E00004000000003F
0003C000000000000040
02F7F001000002000003
0103E040000F80000041
1CF02000080040FC003F
01FBF00007F001000002
01FBC0C0000000000081
0007B13EFC1FBE04117F
020381000800000000BF
1F0BB000000FC00C00BE
1CFFD14000003F000084
0007F0BFEFFFC0000001
02F3C08008307F04003F
02F7C0C00000000000C2
1C000040FC000003F002
1E04304000103E04003E
01E8000100000203B005
02FFF001FC0000000041
1F000040FC000003C0BE
1E0820000000010FC0BE
0003D0000000000BDFC0
1E0420000000000BD03D
01F00000F400000FD07C
00000F40F400030BC0BE
0300000000000007E03B
0303BFC1F8004107C0BF
1FF00FC1FFF08007E07F
1F001EFF000001041080
00FC000000000100003D
1E07DFC203F08103F03E
1EE82F8003E042080080
02F81FFCF7E00000313F
1F07BF8000008108003D
1A0C0FBF03D0820030FF
1AE88FF9F00080FC3100
1FF0407AF8103FF430BF
1D1BBF3F00003EF450BE
1708303EFBF000EC50FE
18F48FB9F40000EC113E
02FC3F7CFBF040000080
1917FFBEF40040F430F9
1A08103DF0003FFC20BE
1EE83F80FBD0430800C0
02EC0FBF03F0440BE000
1C0FEFC0FFE04004103B
1C000000FBF04204103D
1FF41F8203C0820FE080
02FBFFFFF40000040080
1C03C000000043080FC0
02EFF001F800020800BF
01FBE000F4000003F0BD
1D14303DF800BE0BD040
0403B00100000013D03D
04FBF041F4000003D07E
0000004000000003F0BC
1F080000FBE080FFD081
00000000FC00800BC03F
0007D04000000003D000
01F40000FC0002FC0041
1D08000003F041000002
06F3A0010020C0000000
01FFD042000FC2FBD044
1F03E08000003F001042
1C07F0C0FC103D001040
04F7B040002000000040
01F3F04004203D080080
1D03E0C0000000000041
0004003DF7F002000080
1AF4010308003F000041
1E03D0C0F7FFC00000C3
1C040000000002000FC3
1F0BF03F04100003D003
1C042041E7F003FBD004
1E03E08000004003F043
1FEC10000000C007A080
03EC3FFD000001139F7F
1C001000F8000003C100
1CF440000000800BB03C
01F7FFBF03F08017D002
1E082F7E0000810C0FC2
02FFE000FBF04000017F
1FF00FC0F7E0000C00BE
1FEC0E00040000100042
01003EFFFC103E040FC1
1DE03F01FBF08107F080
1EE03EC10010021000BF
00E80E7F0010400C00C2
0003EF7CFC2F80F80183
06EFFF3FF40FC30000C0
1DF42F3F00007F001182
1FE83F3AFC1000FC0182
1FF4603A004F3EEFF1BF
00F7F0BE03F001F410C0
1EE8503BF40F3EE44101
1CE86EFCFC207CEC02BF
00FC2F3B00303E0000C3
01EC603EF80F80F401BF
1EE82FFDFC0000FC2180
00F40E3EF830000001C3
05FBFE80040040040002
1DFC0EC1F3E082000143
01F00EC00020020C10C0
00E40DC00000800C0082
000FFEC0F8203E140003
00EC0F01FC0080000140
1FEC1F81FC0083100081
1DF40F3F0000801BE002
02F84FFD00114017AFC0
1C07C000F3F0010FE0C0
1EF8003FFFF0C007F07F
1DEC20400000C00FB000
1FFC200007F004F7B001
1C0030C0FC008003D0BE
1DFC10C0FC0040FFE0C0
1EF0200000000303D003
1C101FFE000FC403EF80
1CFC00C1000000FFE085
1E0FF040F00FC4F80004
1D000000040000040001
1DFC00010000BF080000
1EFFE040000000000042
1A07F000FC0FC003F082
1C040000000000000000
0304003FFC0003000000
1CFC0000000FC2040FBC
000FB000F7F004000000
000BE03E00008403FFC0
03F81FC000100003DF80
01FBD03F00000403AFC5
0007B00004004003F005
01000000000042037FC1
03001F80FC007F13CE3F
01F4100003F1000BAF81
00F82000000100179EBF
00FFFF4100007E179E84
020C2F02F7DFBD0BCEC4
00FBDF80040140140E81
1F03FE81FC00401FCDC3
0007EF80000EBE13CE46
0108203FF80E7D03EFC2
03EFEE80003F801C0F04
04F82FBF000F00100EC0
1F0800390C4E80000FC4
000FF03B084F7DF40003
1CFFA07B0C2F84040006
02EC1F7B107F00F41080
1F040035004F3CFC0042
1FFC603B006F00F40005
1603EFFB006F80F401C4
1DEC4FFBFC6EFEEC0182
1EFC2035FC5EBD003004
0307E039003E00FC1F85
1AE81FBAF87FFE003104
1EFC0FB9006EBFF83083
1D0010390C6EBF000FC4
05000000044E7E040E80
1FEFDEBF084F40000047
02FBB03F082F00080004
0107EF80001E8017DE46
0013EEC4FFFF7E17CEC5
030B7EFE0410001FFEC2
03FBCF41000FC01FDE86
0203BEC2000000178E44
05080FC0F80000039FC0
1C0FAF000010C11BCDC4
01FFEF7F0000C017CF40
02F800000000820B7F7F
0104403E03EFC3F7D081
03F4004004008117BEC0
0000000007D04203D001
0203CF7F08008403D002
00002FC003E003040F00
0003BFFF10008103C006
1F0FEFFDFC0007FC0FC2
1FFFF001040001000FBF
1B04208000004007E07F
01FFC000000000080000
1CFC000100100003FFC0
1AFC1000FC0000000002
0300003EF00000001F80
1FF01041001FC4080F7A
0007D03EF00004003F81
0000403CF00001000F7E
05001FFFF0003E03D000
0003FFFD03D044FFEFC3
03FC203D03D000FC0000
02004000DFE000FFD000
05103000F00FBEFBDF7F
00F4100003E000038003
01042FC0F40F8003BFBF
00002083DFDEFCFFA001
000430C5E7C03CFFCF80
0503C003F4003F0B7F04
01040084EFEFBD0F9E80
00FC1007DBBDB8FFB004
000C3083000FBCF7CF81
1D03F103000DBD0BFEC2
03003003FBEDBB000E80
01002002FC6D79F80F85
04F8213C0C6E7CE81EC0
1E0000400C7DC0E81F82
0204007A047DBBFC0EC0
00FC10F7148CFBF00EC5
1DF020BA105E80F02E80
1EF00036146DBFFC3ECA
1AFC3036146E3CF7FE44
1EF830761C8CFBF40EC6
0113D17F045EBFEC2EC3
17042036189DBEEC1F06
1D08307808AE3DF42F05
00003000008DBAF00F43
1E17F084F80F3BF80FC4
0007E03D0C7D7E002E83
000C2002FC4DFEF81F40
01002006EBEE79000F43
00FFF043FFE03E03CFC5
0013CF85FC0E000FEE06
0403B044F3CE7B0FCEC1
1B084005DFCEBC038001
03043040E40FFCFBF03E
0017B006F800001B7E04
0107F003F0003C0BAF80
00044001E3EF40FBE07E
00045FC0F00F80EFF0C0
1E003000FC000003B000
00001FFF03F000F7E081
02FC4FFFE40002000000
00002000F40F82001EC3
03EC0FC0040001F80001
1F0C1FBDF3E004000F82
1DF83000001001000F01
1D002002F800BF040000
00FFF000040001001F7F
1C001041000003000F80
1CF43000F800BF000002
0403F000F3F000000F40
00E41040000EC1003000
0000003EF7F001003F43
1E04603FEFC080000F00
0703F0FEF3F000F4003D
07FFF07CDBD0C0FBFF41
0400203FE7D000F8007F
03040100EC013CF3F03F
0518013FFFF13CFBEFBC
0703B081E80FBEE80043
03101100EC007CF8003B
1C03F081FC01B8EFD001
1FFC50410800FCFBCF7F
01F7F185EBB079F7F003
1F041103EC00F9EFCFC2
1DF04002082176E79E80
1C0C20BF0021BBE40E3F
00D42106F40037F3DF46
00FC5106FBE077F7AF00
1D041181FC103CE00E00
1F03F180F41F05E85E7D
1CFC0101085E3CF03E05
040811FEF02E3EE41E3F
0003E240F80E86D42DB6
0113A10203FF46DC3DFB
02F001FA188D40E02D81
0107D23C085E84E03E39
010FC27F001E05D44DF5
00100102FC0F45E46DFA
0303A1FB109D81E04E3E
031401BB086E40E40E7A
1D0801C0001FC0E00E3B
1618208604217EF01F00
03FBC101006E3DE00E86
1E0C204200003AE80EC0
1B0050C3000176EFAE42
1A0800420C00FBEFBF00
01F40148FBD037FF9F05
1F001087FFF0BAF3BEC2
1DFC000003F1B7E77000
0107F0C00000FAF00079
1D000046E7D03AF7A004
03FFF0C3EBF0F8EFD03F
0213E100F3F0BAF4003E
040BB0BDF3F0FEF40002
01040101EC003CEC0040
060FC0C0E7E03EF00100
01081000DBA080000F40
1DF82080FBD000002EC0
04FC0000E3D000FC0003
0013FFFEEFB002000F01
1FE85000000000000F41
1F000FC0F4003E042000
1EFC1000000000001F82
1E001042FC0F80000001
1EF44000F800BF001000
0403E03FF4003FF40000
03E44000F80000003FFF
01F81000FBE000003F81
000030C0FBE080001FBE
0307F13DFBD03FEFE0FA
000C0000E3E0C0F3FE43
0104317DEBE000F7D0BF
1D14013D00013AEFB07B
0010203B08317CFBE03C
021761FF0000FAE7F0FD
1C1030BD00107CF00038
1D07F03C1041B7EBB03A
1FFC4F0108513CF7DF7D
1B07D0C0104237EBC03F
1E0BF03E10413AEBDFFB
1B0BFFC0184239E7AE78
030C00C100403AE80EFB
1707E000242175E3FDFD
0010403F100137EBBEB7
000FD1430830C1D83E39
0303A0C2FBEF85E86EBD
1913C203083143E05DF8
0003D182F7F005D83EB7
1E0FE147DF8F08D47DB8
1D0FF0C5FFCF44E45DFA
0103A247EBCF88D47D77
0107D1C6EBCF45D45E35
1913F185D38F49D07DB6
021BB0C3F80002E46D81
18042147E3EF89D49CF6
1E17D183E7DF08E07D77
0207D145041044D84DF8
1D17AF401020FBF01E7F
1A03E18207E186D45DB9
1E10017E14117FDC0DF8
1E0C00BE1831B7E7CEB5
19FC00431441BAEFEFC0
1B0FB13F1401B7E78E78
181000001C5179E7AEBA
18100EFD1C41F7EBA037
0107E0C104107CF7D03F
1C17C07E182136EBAFFB
0010007D1031BAE7D03D
1E1BD0FC08017AEFD07A
0203D17DEFC07FFBC085
000C00BF00013BEC0039
050BB1FCF3D07EEC0100
010FF13FFFB13D000FBF
03F030000BD000084EFF
000FF1BCE3F0BF000001
01FC003EEBB041002E82
00EC4000000000000FFE
1F001FC0F42000001000
1FF04000000000002FBF
1FF82000EC0041001000
1EF02000F8107F000002
04002000000000000001
01DC2000F80000001FC0
00F43000FC003F004F82
0000100003D13C003F40
0404107F03D03E03F000
1E0050BFF7C17D03FE44
021000FFF7C07D00007E
1E1010C1F7A03BFFC001
00082003FBFFBC03CFBF
1D1BD0800410BBEBC13E
1C14400103F03DF7E07F
1FFFDF84E00FBBFBC004
07F40F83F7F03CFFCF80
1B040F82183139E3D03C
1F040EC100307BF3CFBF
1E001F45DBFEBCFFAF84
050BF006EFEEFF03DF43
1C0BC0030840BAE7FE80
00102F4200203EEFBF3D
040BC00303EE7DFFFE48
04FC0080239F80F00F41
020B8143FC0F83E04D82
0613F10003CF40E40EBE
0613F0392B7E39F00DFE
010031BD1FAEBEF82DFF
1D23C105076FC6D08D79
031011431B7F01E06DF9
0317F0F8236E3AE81DBC
03F400BE17BEFEF01E83
1F17B1C5078E84D47D3B
04101102079EC2E05DFA
0507F00103BE7BF40E05
1FFC0F82F80EC0FBEEC5
0207B0C00830BBE02D43
05040082FC1FBBEFEDC1
1E001007E00F7DFF9E85
1FF0000603F03F03C004
1A141FC40C413BE79EBC
18083E8500207CEFBF00
1C000F84E3FFFBFFCF85
0303E004F7E03FF800C2
1D080F03044137EBA03F
1D0400020000FBEFD000
000FD041FFCFFCFFD045
040BB140F3E03FFFB000
1EFC00C103E078FFD040
010FF13CFBC0BCFBD100
1F04204003913A000F41
01F8000003E000000F03
0603D0C003A17D000F7F
00002040F7B13E002EC4
00E83000000000001F81
00F82FC1F81000000000
01EC200000003F001FC0
01F01F80F82080040FC0
1E000000002000002000
1F03F14000003FFC0042
05D8103FFC1002000F80
1CF8300000003E002FC2
0004000003D000002001
0308000003CF81F3F080
000C1040FB90FCFC0002
0217E07FFFB000FFF07F
1E0C0000F7B000FBD084
06000F02F3EFC1FFCFC0
1C0C0003EB9000F3D144
00080002F7AF80FBB040
02000FC1F7DF8103A002
0507FE83FBEF8303AF80
0203DF83F3FFFD03BFC4
02002EC6EBAFBD03BF82
04040E8403DF04037F00
04141E8000000303AFFB
00000FC7F3EE3F038F85
03005E85EFCE40FB8F80
00082E401B7EC4FF6000
1F1BEEBD23AF80E80F43
01004F40177E8003BE85
03105E79177E7EEB9F81
01003FB9275E7FF3C006
1A0020391F6F7AF83005
080040382F6DFBEFDEBE
04F800361B5E38F7BF45
00F02FB91F5E00EFF006
1E1C1F7E0B9FC0F45004
07F01FF52B5E39EBFE82
05FC3037237DFCF3FF44
000C3DFD1F6E42FBB002
040FCE03FFFFC203EF80
1F044EC11B8E3FFBEF05
040C6E41FF9E40FFCF40
03041E43FFBF06036F7F
01F7FF45000FC403BF44
05FFFE46EBDE80039F41
01FC1E46F3DEC0FFAF01
03040FC3FBCF82039F82
0307E00003DFC003A000
02F80004EF8F3F038F85
00002004FBAFFEFFA004
1F041000F3CF83FBC105
020BE03DF7B002F40043
00140043FB903F03C041
0108203FF3A000FBC141
1D100FC0FBA000001003
1C00203F000000001003
0108003DF7D000000FC0
1E08200003907E000FC2
02F3E07E002000002F80
01FBEFC0FC2080000040
1EFC0000000080002F81
00FC00000000C2000FC0
1F07A040002000000081
1A07D0C0FFDFC003F145
03EFE04000200103F07E
1907F040000000000083
1C0FFFC103DFC00020C1
00042F4003CFC200017D
1E083F8003907FF01001
1D14200003DE80000080
1F040E4103E001040040
020BCE810000410FBFBF
00003E40FC0F41000085
04000E40FFF00307E03E
1BF43DC1FC0004138F82
00FC3E40FC200317CF02
00002E02FC0005038F80
02FC4E41F800050B8F40
03E3FDC30000070FBF43
0207BDC00000040C0FC1
05001D4003F007FF6FFA
08F03E0003F00403CF7B
04EFED4007F0C3002FC0
010BADFC13B0FE005103
000C1DBE03AF82E40001
04043D3D0BA000EC1000
04EFBE7A0B50F9005103
06078EFB07AF79044183
1F042F77236FFBE44049
00040EBB137F78FC1183
06E3BEBA0F603A004184
08FBAE3E03F0BF0020C0
1D101EF91F6F3CF05008
02001E7A1B703BF01107
07E7EDBD17F042FC307F
03F7BDC1002004080FBF
050C1CFB07BFC2E00081
06F44DBF040004F0003A
04E00D8304100607FF40
1FF7CE420000050FCEC2
07000D81080FC7F7A03B
04F05DC2000FC60B9EFE
1EF02DC2FC0004138F04
1F0FEF02FC00420BE000
00005E00F40005037F80
02003E02F800430FAFC0
1E000E42FFF00203E042
1F140FC003FFC0000040
04FC1E00F00004039001
01003F7EF7EFC00000C1
1F040F4003C0000020C0
1B00100003DFC0FC0080
1D003F8003EF80F83040
1B043FC003B03FFC2081
1F07B080003FC103F0C0
02FBE041F8208003E03E
1FF7F000001000000002
00FFA080004000000000
01EBD14000000007E102
00FFE10003EF7F000102
1EF40100F4100203D040
1CFBE140000FC007F144
1FF02042F8003F040082
02F43000FC1FBF03E07F
1FFC3000FBF03F000081
00041000F40F000800C0
03F80E81FFF03F100000
01F00FC000000007DF7F
030BDDC0FC00000800FD
01F00E8003F08313F03D
00F7FDC0FC004317CF82
02F81E80001FC113BE80
01F7FD00F81FC417B002
01EBEE4000200313CF42
1FF7CDC000304413AE42
1E0FFF000400820BEF81
01EFBD41F8000223EE40
02F3FE40EC4003100EC0
1DFFDDBBFC1043180005
1D1BFE3D0400000430C0
01FFACFF000040100045
02F02D3CF8003C00217F
01F80D36FBE03E103144
1F17DE3903CFFF0C1044
060B8CB803A0790C4202
030BDD79F780380440C3
1F03FD36FBA03F104142
19143DFCFC103F04107F
08036C78F780750071C3
01FC1D3803B07D0871C2
1FF80DB9001001181044
1F0FCF4004000207CF42
06E7FD3C00003F101102
1FEC1DFE003042181000
1E03CDFDF820031BFEC4
0107DF010020440BBF00
01EBED00FC200423EEC4
01EBCE0100400117CE82
1FF3DEC0FFF0C213AF02
00080EC10BE00007D03F
000FCDC0F8100417BFC0
1FFC3D80F8000113903F
00F02E81FFF0000FD000
0000003E000EFD003080
00F41E0103EF8317F03F
01041F00000FBE080080
01EC1001F4003F000042
1FF80100FFE03FFFF143
1A086F80F80F400020C0
00FC4040FFF03EFC1082
1EF7E10000000107E103
02F7E100FC10410FE07E
1EFBE10000000003D141
1EF7E08000100003F0C0
0003B17F04004003E080
0103C13E00003F040101
00F001400000000BB141
1FF7C14003E03E0FF105
1DFBE0C00000FEF400C0
1D00303C00003FF8003E
1FE830C0FC10BBFC0040
00F810C000003E000080
1FFC00000FE0BF000001
02FFEF800400810BFF00
02F3FF80080040080000
00EC0F800FF040040FFE
0100100013F08003EFBD
0007F0000C208203CF80
03E41F0008004013DEFE
03FBFFFF08000117FF7F
1E03D00014000007EFFF
0007F07D000000000FFF
1A03EEC008100017FF3F
1B03FF7E0820000FEEC0
1C08003F07F00013E040
02081F7FFFDF800000BB
1E0BFDF90010000C00BF
19143F3AFC0F800C103E
1F002F8003CF4008007D
0703FF80F7EFFF0420BF
0113FDBBF3C03B045100
1B180E3EEBB03B0050BD
1F041FC0FFCF4008007D
02F8103DF40FC008103D
000FFDFBEFE03C00313F
18184E7CF3CFBD0C3000
1B0C0FC00BF00104003E
020BEFFE0800000FEF00
1DFC1DF90010010820FF
1A001EFE00100210003F
1F0BD0000C000203FFFF
0203DFBF0BF0800BEF7D
00FFEE00042040180DFE
00FFDF400C00C013CEC0
01F8003F0FD00003DFC0
0100203F0FE000000FFF
02E41F4004108117CF3E
00F84FC00000400FDF7D
1F0000000FA0BF000002
1B00207FFFD03BF83100
02E82000080040080000
1F00000003F03C0400C2
1DF8004003E0BEF00040
1E07D07F0010FDF80081
1FF400C100007CF800C3
00F8104000003DF400C1
1F03E0FF00004003E0C0
030BD0BF00100007F040
1FF000C004000007D081
00FBE140FC00000BD040
0307913EFFEFC00020BE
00FBD14003FFC00000C1
0003B0FC0000BE040040
1F07B10003E03E000082
000400FFF40000F4303C
000030FFFBFF80FC107C
1CF8303D00003FF400C0
1F03F080000FC0002084
0003E0BFFBF000F0503F
1E0030C0FC0001000FFE
1E00003F0C0000000001
1F04303F0C0F80000FBF
01040080F3F000F0303E
000BD040F3E081FC103F
1D07F000100002080F80
0103C03F080001080FC0
1E0C203FF3E001F0303B
1F0C20BFFFF0C0F85FFE
1E00003C080001040000
0004107F040001000FC0
1E08303EEFD040F85FF8
02003080F7D080002079
1F003FFD03E00010007C
00081000F7EF8008003B
1F080040F3F001F0203B
06F40000FFF03FFC4039
03040FBEEFDFC01020FB
0107E03FF3DF800010FC
1F0C103FF3E041F030B9
02E840BF03D07FF8303C
0400003DE40FC008207A
1F082000E80F8000107C
1E102040EFE002F4203B
04F0304003E0C1F81FFD
0000203D00000108003C
1D04200000000204003E
1F0800FFF3D001F8203B
01F3F08003F080FC303B
1FF8103E0C100203F03F
1FFBD0000C0001000FC1
020FA080FBE001F0303C
00080080F7F0BD004000
00FC000013F0020BE000
1F0000000BFF81040FBF
0207E0C0F7C000F4303E
1E040000F0007EF4103F
1F080000080000000000
1E04000003F03E002001
020BE0C0FBE041E8303E
0010007FEC000000007D
0003E080FC0040FC0040
00080000F8003E002080
1F13C13EF8000000107D
0203D0FCFFFFC00400BE
000FB0FEF80000000040
1FFFE0FC00103F080040

