38
3E
32
01
3D
38
2C
0F
32
03
3E
10
0D
3D
36
02
09
02
31
0F
08
3D
2C
12
01
07
37
00
3F
0E
3A
3F
3C
01
30
00
33
00
08
09
3E
3D
05
07
04
3A
08
01
00
07
00
0C
39
05
0C
0C
00
0D
3A
0B
00
0C
39
13
3C
0D
34
09
08
0A
35
08
32
07
0B
0D
08
03
11
05
05
06
04
05
37
38
3D
12
07
05
02
0A
06
0E
05
3A
04
3A
04
0E
3E
0B
0D
02
32
3E
10
3A
0A
0A
00
06
0B
08
0B
07
01
0C
08
0F
07
00
0D
01
01
04
05
37
39
0E
12
38
35
04
0A
01
33
02
10
33
33
0A
03
3E

