1E03F0C000003E000180
1B1781C00000000C00FF
000791800000000400C0
0003A000000000180040
00FC40BF00003F0000C0
1B0FA0BF0000000000C0
1D0BB080000000040000
1D07A000F40000040000
00EC503FF80000000101
1D03F040000000000080
1C0BF0000000000000C2
1F177000000000080001
1FE4803FFBF000080000
1B0C0000FFF000000000
1DFC00000000000000C0
1D03B0000000000C0000
01F0203E03F000040000
1CF82000FC0000000000
01E44000000000000000
1FEC0000FC0000080000
1D17E03C03E000000000
1EE490BF00000000003F
01E83000000000000000
00E47000F40000000000
1737903D03F040040000
00EC803FF4000004207C
04F8000000000000007D
01DC9000F80FC00000C0
1737A03C03F0000400BF
01E4A000F8000000003B
00F420000000000000BE
02D88000FBF00004013F
1D1FD03F07F000040040
00E4704000000000007C
00E8300000000000003F
03D85000000000040000
0003F03E03D000000000
1CF8507F00000008003F
02F00000000000080000
02E42000FC00800C0000
02F0303F03F00007F000
1A005080FC0000000000
1E03F0000000000C0003
00FBD0000000000BF001
1FF4307E000000000040
1C04000003E00003F03E
1D0C0000FC003F000001
1D0B9000F400000C0FC3
00FC303F000000040000
1E0C00BF00000000017F
00040000000000000000
1C13B000FC00400C0003
00FC007F00003C00013E
1D07A1BF000FC000117F
0003C1C0000000000080
1E03D100000000000001
1A1BC140000000F401BF
0003B0BF0400400000BB
1D039180000000000180
0003D0C0000000001081
1E0800C0040000FC103A
00F7C040000000FC0140
1FFBF140000000000080
1EF02000F400000000C0
01F80000000000FC003B
1FF8004003F000FC007F
1FFFF000000003000001
1F004000000000000080
03F03000000FBE00203F
1F00004000000000003E
1FF80000000000000040
1F000000F40000080000
1EFC6040F4003E00003C
1EF80040000FC000003E
00E80000000000000040
1EEC2000000001040000
1A04A0BFEC003D00007D
01043000FC0FC000003D
03EFF00000003F000140
01E00000FBE000100000
1A0CA000F80FBB03E0FC
0500403EF40F7F0000F9
01FC103FF0003E0020FF
08EFD000F000000040BF
1D089000F4003D00017A
05FC303EEC1FFDFC01B7
04EC0000FC003C0010BA
09EC003FE00FFF002040
1A04A03DF8003C0000BE
02004000F00FFF00017A
02E83000FC003F00013C
04D85000FBF000101FC0
1A04803FF8003E00007C
00003000F4000004007B
00F82000F4004000007F
1FF83000FFF000100F82
1DFC603E000FFF001000
1F08300000000004003E
00003000000000000080
00F01000FC00000C0000
05E4203E00000000003E
00F8304004000000003F
1F042000000000FC0040
00FC300000000003F080
03EFF000000F81000000
1F04004000000000007C
00000000000F80F80000
1EF82080000000000100
1E139140080FC00000B9
1EFFE1000000000000C0
00F7F1000400000000C0
1BF41080000000000180
07FFA03F08000004003E
01F39040000000000040
00FBE0FF0400FF000040
1FFB90800010C0000000
03FFA00000000003FFBC
0203B10000004007E000
00F3C000080040000001
02FFC000040140000000
00F4200000004013DEBD
01FBE040FC000003D000
0203900000000103E000
1FFF900008010003F000
00EC20000000000FEF40
00000080F8000003E0BD
000800000000000BF03D
1D03FFFE0410C0040000
1D082000000040040FF8
0000100000000000007D
02F0000000007E000080
01F81F000800400C013C
17183000F7E0000000B7
1913E0000000400000BF
00F000000000400000BE
04EC3E8000003D000080
19186F3E0000000040B5
1D18003F03F00000207C
04F4010003F10000013B
05F4403C00003B00017E
1B146EC0FC003F0030F3
1C28203BF4003CF440B9
03FC203B00003DFC41F9
06FC503A00003B03E17D
1C082000F7D080000076
1A1C1FFFF7F0400030FA
1F042F80F000000021BA
00F43FC000000004007E
0017F000000000000038
1B0C100003D0000010FF
1E00000003E0800400FA
1D041F0000103F04013E
00FC300000000017CEFB
1F000000FC000207F03A
00FC000003F00000007E
0103FF0000103F0400FF
00F8300000004017BE7E
00000001FC004007F03E
0003D0000000800C0000
0007A000000140000040
04EFC000000000080FBF
00FC00000000000BEFFE
0000000000000003F000
000BA000000080000000
0603700004203F0FF03E
04F7814000004003E000
01EFA0C0000080000001
1EFFA040000000040001
00F4004000003E000086
1DEC008000003E080100
00F7E00000003E000040
03EBD03E04300000003F
000F9144F8000003C000
1F03C080000000000083
1F07B00008000003F004
00FFD0000C0000000003
1CFC304000000003E0FD
1F03F000FC0001FFB080
1F0BF0C0000080035001
1F0000000001000F9F00
00F02000F400C203E17F
1BFC404003D04003D140
00FC1000F0000003D083
0003E00100004013BEC0
1AF44F01FC000103E0C1
1EF83F40FFF0010BF03F
1D0C303FFC00000000C0
00000EC0000F000C0E82
1FF43F00E7D003000101
1D042E80F800040000C0
1C0C1000EC00030000C0
1A14003DF81E80000000
00FC3FFEF7F000EC103F
00100FC0E80F41FC31BC
1F0C0000F000010000C0
1C2FE03AF43F7E005102
1D002000000000F0203C
1D0C203FF81000F0417B
1F0C2039EC1000F43140
1C2FF03AF43FBAF83082
00F80F80F3F003000101
1C0C003FF7FF40F03140
1E0C203AEC0F80F80100
1A20003BF80EBF003080
19EC1F4200008003B083
1E001EC003E001000180
1C100E80FC0000000101
1C140000F80000080FC1
00F81000FBF00003F140
1EFC1000000003080040
1C000EC00000010FA000
1F000F410000801F8FC1
1BFC2000F0000003F040
1D00200000000003F080
0007F0000000000790C0
000010000000400F8000
1D04014100000003E03F
190030C100004003C0C0
1D00104008000003C080
1F07E00004000003C000
1DF0010000003D000182
1FFFD0400000000000C2
00FFD04000000003F081
01E40000040000000000
1C07A000000000000004
1D039001000000000000
1EFBD04008007D001002
00EFE000040000040000
1F07D00004000003FF80
1B13D000000004040002
1E042000000000040FC0
00FC1000000140000FC0
01D400001001800BCF40
00FC000003E08303D001
020FF000F3F00303F004
00085000000040000001
18EC6F400000801C0E85
00F4003F0000C017DEC0
1F00304003B08003A000
1F143001E8000003F000
07F79D000000001C0000
0203EF000000401BEF02
01FC1000F00000100FC0
1F102005E00F7E08007F
01CFDDBE04000100008A
0203BF3FFC0FC01BFF83
0207DFF9005E40240FC0
00100F80002D3D000000
18F40EFC000040F00248
02000F3A003F00F800C2
0003D037145E02000005
1F004038147D00000002
11002E7A000040F8030A
1EFC4F78F49000FC01C1
1EF82036005F00000200
00002037088D80000000
03E3AE3F100000000049
00FC1EFD045F80000041
00001000F05FFEFC0181
1D142000004D80000000
00FFAD00080080200001
0003FEFE001F00080002
0007FFC0000F000000C0
00102002F7EE7E00003F
1CD42F800800C0180F88
1E040E80F800001FEE82
1E140EC0F00FC01C0000
020C0001EFD00000003F
1DE820000001000FEF84
00F810000000C01BBDC2
00F83000FC00401BBEC0
03042000E0004003F000
00FBD00000000503FF42
00FC200008008003EF80
00F0303F00010003BFC0
0104403DE0004003F000
1E03E000000000040000
0207BF80000002000002
01FBC000080041000006
1DF40000000040000002
0003A000000004000000
0003C000000000001000
1CF80000080040001000
1AF0400000003D001F00
1F000F80080003000000
1E000F80000004080002
03FFE000F40001081F00
03F84000F40040000EC1
1DF81000000002178D84
06FBFF8003E002FC0004
02FC3000F80001000000
1F044000F8000003FF80
0AF72EC6000000237C4A
060BC00400000003AF40
03FC1040000080035000
01005040FC003F03DF7F
000B9FC0001EC00FEE0D
0403C002F3FF400BAEC4
0003F043F4003C136EC3
00F8904000103903CF00
1F03DFFD144DFD000008
0103E002003DBD000F07
1E0FC040F81D4003FEC8
1FFC5100004EFCFBFF03
1FFBD035088F00F0400A
00F4203E0C7DBFF80F46
0307A0C0007E00EC0F40
01F8113E002E80EC0E80
1DFFBFF40C8F00FC7008
180050B50CAEBEEC0008
1FF411370CAD7FF00007
04F0213EF83E40E40FC0
01FFDFC0085E00002007
02F7F039046E7FF80F46
1CFC403B007E7CFC0FCC
1FF87100FC6E3BFC0002
0003AF40000F4017FD89
000FEF40083DFE000E43
02002000005E7C000F81
1E006002000FFD03EF42
0802EE03000000272D4B
0417C004F00F7E139E83
1F0C0005F00EBF17BE81
1EFC8002F0003C03EF00
1FFFF000080043075E87
0507A005FC0FFF137F00
040BA084F40F801B4DC0
02002040F40F80040F7F
1B000FC00C0005000004
01FC1FC0000F80F00000
04F82000000000000000
02004000FBF000000E80
1D00000000000300003F
00040FC0000004000000
00F01000000000000002
00D86000000000002F85
0003F000000000000003
1D03D000000000F80080
1D000000000100F80001
00EC1000000080002F80
05F3D00003E0020000C2
00FC0000FBF000000F44
03FFF080FC0000000F80
03FC400000000000003F
06035001EC0000F80006
0A03A000E7C040F40002
02FBE03FF401C003D000
01FC20FF00018003E03B
0CF33109EFEFFD03F005
090BD0C3EBD07AEC0000
0113E0401000F8F7E036
1F0040000C11BC03B03C
03E7C088F80E3803E009
01F42044FBE037FB9001
01001082F8017603D03B
1E0830001C2139F3CF77
04CF8082088D3BF80ECB
1BF85104001035EBEEC7
19040189E7F000E80E84
000FB183001040E40F7A
00F7F03A208D40F40DC7
000440C00C3DC0E00E40
1C003105000E04D08E01
00000187EC0E88E46E79
1A03F03C28BCBDF80E87
01F8417B1C8D82DC0E7B
1D00024018BC47D41DBD
1F004104002E06E46EB9
00E3B004047D3FE80F0A
01FC017E0C7E40DC0E80
0403D17C189F00DC2DBB
0013A140145002EC4E79
00F3B008F00EF903F00A
1E040102042FFBE3EF86
1E0C10C0082037F40F00
1F0C00001841B8F3FFF8
0DE2F08AF3CFBD03C008
010000C5F7D037F38000
0200204600003703803F
1C0C300018217A03B03C
0EDF3005EFE000E8000A
080FE0C4EBC07BEC0000
030BF0C3D800FCFBD000
03082000FC00C0FBD000
1E000000FC0004F80005
050FF000F3E03FE00000
080000C0F00000F0003C
06004000EFE040F8003D
1F03D000000001000002
00040000E7B003000004
00FC0000F3F000000001
02DC5000FC0000000000
00000000000000000003
1BFC0001F40000000003
1C002000F80080000042
1DE430000000BE000003
01F46000000000000000
00F84000F7E000002F01
06EC400003F080005F00
04F0300000003F000000
020B30800401BEF40000
0503F17FF00040F0003F
03FC0100F3D00003F003
0200308003D000000000
02FF2103000277E7AFC5
000800C000013BE3D000
0303F041E80039E00000
00FC500400003DF40000
170780C50C0234EBDE47
1A0430031C01F8EFDFBE
1DFC3085000139EBA000
1FF86085F8003DFBEF45
1BF40105000103D82D80
1A0800C01411FBE40EFA
18140003183233E80E00
1F04010304003BF00E41
1E178280F40F4ACC6CF9
000FF184000086D44D76
1D1402021C0000D84CFA
000C0083180FBBF02E3D
1F233280040F07D48CB4
0013B208EFBF46D08D75
0203E24203FFCBC4ABF9
050FE00313FE3CF06DBD
1D001180100182E03E3D
1F0BF184FBC005D86DF3
1E0BE206F3FF47CC7CF9
1E140140000F40E40E40
17FFD0050C0235F3BD86
1A1BE1010401BFE00EBC
1F0BD104FC0040D00D80
1DFC3106FC0F7EFBEEC4
1F033001040279EFC008
1A141004102178EBDF7B
1C141005140235E7BF7D
01080003000038F7F000
0B02D1400001FFEC0001
1F08304010117AEBE03B
1E044040080237F3E038
000810C207E03CF40000
1F0C0000F40000000000
0308213C00003EF7F037
030801FE00003FF40037
04FC110003F03D00003F
1EE82000F40000000000
1F0C3040DFD000000000
01F80000E80000000002
01E0200000003F000003
03000040F40F80000000
1CF40003E80000000042
1DF42001F40000000002
1CF05000001000002003
1F040180000000000000
00E84000F40000002EC4
01000000FC0000002E85
0000000000003D002000
150460000C017CF7D03F
000C20C0FFF0FEFBF000
0007D180DFB07F000004
00000043FBF000000001
1C178FC01C423AEBEFB5
010820000011BAEBB078
00002000000040F3D080
03FBF00200004003D003
1917A0002431FAE40E74
00001F410C50BBF00EFB
020C00021021BDFC0FB9
0004000200003F000F00
03E3B183081080DC3D00
0008100104307EEFEE41
1D08000114303BF00FFD
1D07E0010C0000F80F80
1F0BB148EB9008CCBD3B
0200010103EF05E47DFF
03EBF08013D000DC1E03
1D00010027BEC3E83F00
1A0FC207DF8008C88C78
01FC4145137F07E08D37
1D0C01441B2E0ACCBC79
00F821401B8EC5E04E41
03E3D186043040D40CC0
0200014403CE82E05D3B
00FC1104FF7F87D89C80
1C0410C30B9F86F00F7E
190BC000204279E3EDBA
000BE0400050FAF00DC0
0303D180000000F00CC0
0203D005040040FFFF41
1D1FAFFF2451B5D80034
1C143F010040BCEBEF3B
020BE0000C60B7EFDFBC
06FFF0020000BE03DF81
1E07E0002011BAE7D000
000C1000002138EFE03B
000C30000011BBFBE03E
03000000FC007F03E000
1F00010003C100000002
0108110003E000F7B03E
1F1400C000003F00003E
00043000FFE03C000000
02D81000F00000002000
01FC2100FBE03E000F40
02F7F08000003F000000
1BF44000F80000000005
03FFF000F80000000002
00F7E000EC1042000000
02FC0000EC0000F80000
16040000003000000002
1F00110003E000000000
04F4003DFC0000000FC3
00F81000000000002FC2
02F400000000000000C0
1FFC308503B000E80100
000430C0F76040F00041
1E100000EFF000F80002
0000300003E000000000
08F00FC4F80FC003B004
0417E001E7E03FF7C082
000C0000F80000F7A1C0
0004200000200103903F
1F002F87F40EC0037F83
04042F85F00FBE037FC1
040BBFC5000000039000
1F0BFF80005006FF8000
020000021B9E7B03EDC6
02103F43F3DE00FF4EC2
01000F87FBDF40000FC6
1E07FF4003F000FC0FC6
08F8607F377E79E40D7C
020C6FFE1B6E3DFBFE42
1F13F0000F4FC0001FC7
00F010000B703EEC500A
08FC40BC3F6DF8EC0D7B
07FC40F52F8E79E40E05
07EC20793B2E7DE40EC4
0107C0001B603EF07009
07F7F003239E79FC0D04
050C2039235DBAEC0E43
070FC0382B6E7DE80F00
04F0000017A000F42005
00F02F87E40DBF03AEC4
03083FC303CD40037F00
000C0000000EC003BEC0
0203EF80042004FC0F80
04EFC008F40000039003
05042F48EC0F00039F00
03000F88F00F00035F80
01000FC0FC400003BFFF
00000043037000E7D082
06000004EBCF8003C000
010C0004FFF00003D003
1F00000100000003E002
1E00408003C100000000
020C20C0F78000EFE000
000C004003A000F40100
1E044000039000FC2040
03EC0040F80000000F00
0010103E000000000F81
000BE0C0000000000000
1D03D0C0003000000080
02000000000000000000
00F3F000000001000040
02F7D000000000000000
00FBE0C000000003F081
0200403C000000F80140
1D13F080F80000FC0000
1F000000F40000000001
1FF01000000000000000
03004000EBF000000005
1E183FC0FFC000000080
1C07FF4003C000000002
1C101EC4FBB000080001
02F85F80DFF003039002
000FFE42E40002039001
1F0F8EC0E800000F9004
1D13AF01F0000213BFC7
02FC3E01FFB00603503E
03F83E03F800070B8FBF
01FFDE01F80FC61BBF82
000F6EC2F81006140E84
1E0C2DBF136FC4F7E000
04083D41000FC703D03C
0307CD80FC000903D000
1E139DC003D002141006
1E0C3FF6271E3BDC000A
02006DF8177F80F03080
0513ED7AFB6000F800C0
03100DFC0B8000000103
1D142FB61F2EB8E80009
02F86E780F6FB6E831C6
01040F321F403B004045
04082E7703903D0041C0
00102E00079F84FBF000
04043DFB135F7BEC4141
000BDE760FAF40000005
000FDE3C000FC0081003
00FC7D83FFA007035FFE
07041CC0000F8500003A
010BCC80000002140FC0
1E13AE82FC0FC4140E83
00F86E40F3D002038000
04043E40F00007076F3D
000FED81FC00070F503E
1D1B7F0403F0431BCF85
00003000F7F000FFF003
05100E80E8000407CF40
030FDF40EC000407CFC0
1B0C1F42F7FF8007F002
0300203C000000FC0000
02081F00FBCF8000003F
01002F40FFD0010000C0
1E040F80F7E000000043
01FC007FF00000000000
19100000FBF001FC1080
18080000000F00000101
1DEFF080000002000141
18005000000FC10000C0
00F3F0C0FC004004003E
01E4010000000000003F
02F3E10004000003E000
1F005000FC0F41000080
1FF8013FF4100003E142
1FE410C0FC200003C103
00EC1100F80000000040
0207FE4000000000003E
000C0FC0FC0000000040
1C0FF00003E000000000
0007F00007D000000000
00003D7F001005075000
1F0C0D80FC100317C000
1F0BCF80140000000000
0103F03F1BE0810FBF80
05DC2CC00000C403C000
04FC1D40F8108613BFC0
000BDE3F0410030B6000
0203EFC00800C513EEC0
08DFDC40000040000000
0007DD80F0100317F000
0103ED40003FC4180FC0
1F17FEBF000F410FF003
0AF3ACB7137074002140
010FFCF8F0003D006140
0403DCBD0C0000041000
00140F3E0BBEFF005006
0EF3CCF70750F3004100
041FFCB7EB70340081C1
050FACB403503A004186
00100EBE0F9EFE046045
0ADFDC00080040000040
03100D3AFFC0380071C1
040B9D360B80FD003143
01040E3D03DF00101004
07CC2CC0001002000FC0
0003FD7EFC1001080000
040BCD3E10000000003E
020BEF400BF0041BDFFF
1F007DC0FC0004034000
00000DFFF020C517AF40
020BDD4000104823BDC0
0007EFFC1801030FBF00
1D080F40000FC00000C0
00080E40F830030FBF81
1F07EEC00000030F7001
0007F000100001000FC1
1E00600000000000003F
01000F80000F800C003D
0200000000000000003E
1F04004003F001000000
1EFC60C0F800000000C0
1B0030C0FC00000001C3
1FF82140000000FC01C1
00F3F14000000003F080
00FFF1000000000FE040
1FF7F1400000000FE03F
1F03E13C00000000007D
0007A13D000FC000007A
0003F000F81000000100
1DFBD100000000000100
0003E0C0000080000000
0103D0BEFC0040000000
03E01F80FC00C00C0000
00FC000000003C001100
001BA080000000F0407F
010BD04004000000103C
06C42DC00040000FEF80
00EC5FC0000080180000
0000000003D100000000
0207B0000FB00000003E
1FFC2D00F830001C0DC0
00F43E400C208217BF40
02FC0F000401010C0FC0
01FFF00003C0C0000FFD
1D003CB9E420C0080000
1E001E7D0C204213DFC0
0007CFBF000002140F3E
00040000000000040FFC
1C143BF9EBF0B6004100
00085D39F80040180000
0407FEF9F8008000203D
05040000F7C00000503D
1A1C3CB8E400780050C1
02044D3CE3B0B80C213F
030FFEBEF3C13D003080
05002000FBB07EFC4000
00000CFAEC30800C0000
00087CFAF40000141000
03040EFA03E000002080
0000003F03C000F4003E
1BF83CC0F441011FEE40
1E005E3E00000327C000
000BDF3AFC00030FF03F
0104000003E00200003C
04C83E80002000180000
1EF41E400800020FCEBE
0003CFC00000041C0E7D
030FB00003E00100003D
01DC20000000C0100000
1FE46F0004004013B03F
01FBF0000C00C0140F40
0203C0000BF00000103C
01E02080FC007D000100
1FFC100000003F00003F
0000000004000000103C
1F0FD040FFF000FC0000
00F4007F000000000000
1DF800800000000000C1
0203C13A001000000140
0100013B0000000000FC
00FFF100000000000001
0007913F000000000000
0003A1BF000000000000
00FFA100000FC10000C0
1F0010C00000000001C0
1A07F13E000040000140
000BB0C0FC0000000040
1E03F0C00000000000FE
1AFC5000140000000000
1B04303EFC0000F001C0
1F000000000000E43100
1E0FE000000000F01000
1EEC203D180041140FC0
1F0000000C0000000FC0
1DF83000000040002FC0
1E03F000000000003F80
19F87FFD1420010C0000
00F4203F040001080EC0
0003F000000080000EC0
1FF40080FC1040004F00
1C006EFD03F00010003D
00FC003F080003000000
00F81000040000000FBF
05F00000F4008000103C
1A0C5EFFF00000180040
03000FC0FBF0000400B9
01F82000FC0000000038
05FBE000EBE08000303F
1A0C6E3FE00000200080
04001F40DC0FC00410B9
04000F80D80000000037
05F40040EBF00000403D
1C005EBC0000001FF03F
07FC1FFDF000000400B8
02042000DC0000001076
06FC0080F4000000203E
19002FFB0C1000140000
03FC103C00000104003E
02000000FC000000003B
0003F040FC1000002F7D
00F0003E1C0000080FC0
01F8003F000000000F80
00FFF000000040040F00
1F000080000040002FC0
1800403F1800000000C0
1D0000000C0000040FC0
00FBD000000080000000
1F0BD000000080001000
1A004000000000FC0180
1B0C0000000000F80000
1E08004000000000103E
1E040040001000F0107C
00EC018000000003D000
1C0C013F000000000101
00FBA100000000000082
01F3E0BD000000001000

