00
38
3E
02
07
3D
3F
3A
3D
02
3D
04
35
02
3F
36
0E
0C
01
07
0A
3F
0C
0F
04
0D
10
38
36
39
39
01
00
3A
02
0B
3C
02
0A
0C
03
0B
08
3B
06
3E
00
00
03
36
35
08
3C
3C
02
3D
07
04
3D
3C
38
05
0D
04
03
06
38
36
04
01
07
07
31
34
05
38
01
06
05
34
3F
3D
31
32
05
33
36
3B
38
3A
3A
35
37
39
3D
3B
3F
3F
03
0A
0D
0B
0E
0A
0A
02
0B
0E

