1E
07
1E
1A
1C
15
06
1E
13
0C
08
1C
18
1B
1B
0D
07
16
02
1D
01
07
01
16
01
0B
1F
03
0B
01
03
0C
0A
1B
04
03
16
0B
0C
08
05
03
1B
1F
06
1E
03
1B
00
15
13
1B
14
1B
1E
0C
06
0C
1D
02
1F
19
03
1B
01
04
0B
1C
04
16
19
1B
02
00
09
04
1C
08
17
14
11
1A
1F
02
14
05
06
1B
03
0C
1A
1E
00
1C
0C
08
0B
0B
0B
1D
00
05
17
08
1D
0A
0A
02

